unsigned char model_tflite[] = {
  0x28, 0x00, 0x00, 0x00, 0x54, 0x46, 0x4c, 0x33, 0x00, 0x00, 0x00, 0x00,
  0x00, 0x00, 0x00, 0x00, 0x00, 0x00, 0x00, 0x00, 0x14, 0x00, 0x20, 0x00,
  0x04, 0x00, 0x08, 0x00, 0x0c, 0x00, 0x10, 0x00, 0x14, 0x00, 0x00, 0x00,
  0x18, 0x00, 0x1c, 0x00, 0x14, 0x00, 0x00, 0x00, 0x03, 0x00, 0x00, 0x00,
  0x40, 0x1c, 0x00, 0x00, 0xa0, 0x0c, 0x00, 0x00, 0x88, 0x0c, 0x00, 0x00,
  0xac, 0x00, 0x00, 0x00, 0x74, 0x00, 0x00, 0x00, 0x04, 0x00, 0x00, 0x00,
  0x01, 0x00, 0x00, 0x00, 0x04, 0x00, 0x00, 0x00, 0xba, 0xf0, 0xff, 0xff,
  0x44, 0x00, 0x00, 0x00, 0x1c, 0x00, 0x00, 0x00, 0x04, 0x00, 0x00, 0x00,
  0x0f, 0x00, 0x00, 0x00, 0x73, 0x65, 0x72, 0x76, 0x69, 0x6e, 0x67, 0x5f,
  0x64, 0x65, 0x66, 0x61, 0x75, 0x6c, 0x74, 0x00, 0x01, 0x00, 0x00, 0x00,
  0x04, 0x00, 0x00, 0x00, 0xc0, 0xff, 0xff, 0xff, 0x08, 0x00, 0x00, 0x00,
  0x1b, 0x00, 0x00, 0x00, 0x08, 0x00, 0x00, 0x00, 0x63, 0x6f, 0x6e, 0x76,
  0x31, 0x64, 0x5f, 0x32, 0x00, 0x00, 0x00, 0x00, 0x01, 0x00, 0x00, 0x00,
  0x04, 0x00, 0x00, 0x00, 0x6e, 0xf2, 0xff, 0xff, 0x04, 0x00, 0x00, 0x00,
  0x07, 0x00, 0x00, 0x00, 0x69, 0x6e, 0x70, 0x75, 0x74, 0x5f, 0x31, 0x00,
  0x01, 0x00, 0x00, 0x00, 0x0c, 0x00, 0x00, 0x00, 0x08, 0x00, 0x0c, 0x00,
  0x04, 0x00, 0x08, 0x00, 0x08, 0x00, 0x00, 0x00, 0x08, 0x00, 0x00, 0x00,
  0x1d, 0x00, 0x00, 0x00, 0x13, 0x00, 0x00, 0x00, 0x6d, 0x69, 0x6e, 0x5f,
  0x72, 0x75, 0x6e, 0x74, 0x69, 0x6d, 0x65, 0x5f, 0x76, 0x65, 0x72, 0x73,
  0x69, 0x6f, 0x6e, 0x00, 0x1e, 0x00, 0x00, 0x00, 0xd0, 0x0b, 0x00, 0x00,
  0xbc, 0x0b, 0x00, 0x00, 0xa0, 0x0b, 0x00, 0x00, 0x4c, 0x0b, 0x00, 0x00,
  0xf8, 0x0a, 0x00, 0x00, 0xe4, 0x0a, 0x00, 0x00, 0xd0, 0x0a, 0x00, 0x00,
  0xbc, 0x0a, 0x00, 0x00, 0x28, 0x0a, 0x00, 0x00, 0x14, 0x02, 0x00, 0x00,
  0xc0, 0x01, 0x00, 0x00, 0x9c, 0x01, 0x00, 0x00, 0x78, 0x01, 0x00, 0x00,
  0x54, 0x01, 0x00, 0x00, 0x48, 0x01, 0x00, 0x00, 0x34, 0x01, 0x00, 0x00,
  0x20, 0x01, 0x00, 0x00, 0x0c, 0x01, 0x00, 0x00, 0xf8, 0x00, 0x00, 0x00,
  0xe4, 0x00, 0x00, 0x00, 0xd0, 0x00, 0x00, 0x00, 0xbc, 0x00, 0x00, 0x00,
  0xa8, 0x00, 0x00, 0x00, 0x94, 0x00, 0x00, 0x00, 0x80, 0x00, 0x00, 0x00,
  0x6c, 0x00, 0x00, 0x00, 0x58, 0x00, 0x00, 0x00, 0x44, 0x00, 0x00, 0x00,
  0x30, 0x00, 0x00, 0x00, 0x04, 0x00, 0x00, 0x00, 0x32, 0xf3, 0xff, 0xff,
  0x04, 0x00, 0x00, 0x00, 0x10, 0x00, 0x00, 0x00, 0x31, 0x2e, 0x31, 0x30,
  0x2e, 0x30, 0x00, 0x00, 0x00, 0x00, 0x00, 0x00, 0x00, 0x00, 0x00, 0x00,
  0x00, 0x00, 0x00, 0x00, 0x00, 0x00, 0x00, 0x00, 0x00, 0x00, 0x00, 0x00,
  0x54, 0xe5, 0xff, 0xff, 0x00, 0x00, 0x00, 0x00, 0x00, 0x00, 0x00, 0x00,
  0x00, 0x00, 0x00, 0x00, 0x64, 0xe5, 0xff, 0xff, 0x00, 0x00, 0x00, 0x00,
  0x00, 0x00, 0x00, 0x00, 0x00, 0x00, 0x00, 0x00, 0x74, 0xe5, 0xff, 0xff,
  0x00, 0x00, 0x00, 0x00, 0x00, 0x00, 0x00, 0x00, 0x00, 0x00, 0x00, 0x00,
  0x84, 0xe5, 0xff, 0xff, 0x00, 0x00, 0x00, 0x00, 0x00, 0x00, 0x00, 0x00,
  0x00, 0x00, 0x00, 0x00, 0x94, 0xe5, 0xff, 0xff, 0x00, 0x00, 0x00, 0x00,
  0x00, 0x00, 0x00, 0x00, 0x00, 0x00, 0x00, 0x00, 0xa4, 0xe5, 0xff, 0xff,
  0x00, 0x00, 0x00, 0x00, 0x00, 0x00, 0x00, 0x00, 0x00, 0x00, 0x00, 0x00,
  0xb4, 0xe5, 0xff, 0xff, 0x00, 0x00, 0x00, 0x00, 0x00, 0x00, 0x00, 0x00,
  0x00, 0x00, 0x00, 0x00, 0xc4, 0xe5, 0xff, 0xff, 0x00, 0x00, 0x00, 0x00,
  0x00, 0x00, 0x00, 0x00, 0x00, 0x00, 0x00, 0x00, 0xd4, 0xe5, 0xff, 0xff,
  0x00, 0x00, 0x00, 0x00, 0x00, 0x00, 0x00, 0x00, 0x00, 0x00, 0x00, 0x00,
  0xe4, 0xe5, 0xff, 0xff, 0x00, 0x00, 0x00, 0x00, 0x00, 0x00, 0x00, 0x00,
  0x00, 0x00, 0x00, 0x00, 0xf4, 0xe5, 0xff, 0xff, 0x00, 0x00, 0x00, 0x00,
  0x00, 0x00, 0x00, 0x00, 0x00, 0x00, 0x00, 0x00, 0x04, 0xe6, 0xff, 0xff,
  0x00, 0x00, 0x00, 0x00, 0x00, 0x00, 0x00, 0x00, 0x00, 0x00, 0x00, 0x00,
  0x14, 0xe6, 0xff, 0xff, 0x00, 0x00, 0x00, 0x00, 0x00, 0x00, 0x00, 0x00,
  0x00, 0x00, 0x00, 0x00, 0x24, 0xe6, 0xff, 0xff, 0x00, 0x00, 0x00, 0x00,
  0x00, 0x00, 0x00, 0x00, 0x00, 0x00, 0x00, 0x00, 0x34, 0xe6, 0xff, 0xff,
  0x00, 0x00, 0x00, 0x00, 0x42, 0xf4, 0xff, 0xff, 0x04, 0x00, 0x00, 0x00,
  0x0c, 0x00, 0x00, 0x00, 0xff, 0xff, 0xff, 0xff, 0x04, 0x00, 0x00, 0x00,
  0x01, 0x00, 0x00, 0x00, 0x00, 0x00, 0x00, 0x00, 0x00, 0x00, 0x00, 0x00,
  0x62, 0xf4, 0xff, 0xff, 0x04, 0x00, 0x00, 0x00, 0x0c, 0x00, 0x00, 0x00,
  0xff, 0xff, 0xff, 0xff, 0x02, 0x00, 0x00, 0x00, 0x10, 0x00, 0x00, 0x00,
  0x00, 0x00, 0x00, 0x00, 0x00, 0x00, 0x00, 0x00, 0x82, 0xf4, 0xff, 0xff,
  0x04, 0x00, 0x00, 0x00, 0x0c, 0x00, 0x00, 0x00, 0xff, 0xff, 0xff, 0xff,
  0x04, 0x00, 0x00, 0x00, 0x10, 0x00, 0x00, 0x00, 0x00, 0x00, 0x00, 0x00,
  0x00, 0x00, 0x00, 0x00, 0xa2, 0xf4, 0xff, 0xff, 0x04, 0x00, 0x00, 0x00,
  0x40, 0x00, 0x00, 0x00, 0x20, 0xa9, 0xa6, 0xbc, 0x95, 0x66, 0xe8, 0x3e,
  0x28, 0x8b, 0x01, 0xbf, 0x17, 0x4e, 0x90, 0xbd, 0x75, 0xb3, 0xf5, 0xbe,
  0xe0, 0x49, 0x87, 0xbc, 0x95, 0xab, 0x0c, 0x3f, 0xe1, 0x9f, 0xb5, 0xbe,
  0x7b, 0xd5, 0xeb, 0xbe, 0x4a, 0x5b, 0x07, 0x3f, 0x99, 0x74, 0x23, 0x3e,
  0xbc, 0x8d, 0x4b, 0x3e, 0x40, 0x77, 0x49, 0x3c, 0xb6, 0xb6, 0x00, 0xbe,
  0x43, 0x5b, 0xf2, 0xbe, 0x27, 0x26, 0xa5, 0x3e, 0x00, 0x00, 0x00, 0x00,
  0xf2, 0xf4, 0xff, 0xff, 0x04, 0x00, 0x00, 0x00, 0x00, 0x08, 0x00, 0x00,
  0xb8, 0x9a, 0x46, 0xbe, 0xe4, 0x3f, 0xff, 0x3d, 0x6c, 0x9b, 0x99, 0x3d,
  0x87, 0xc7, 0x90, 0xbe, 0xea, 0x84, 0x28, 0x3e, 0x97, 0x87, 0x54, 0xbe,
  0xfa, 0xc9, 0x3b, 0xbe, 0x68, 0x17, 0x84, 0x3d, 0x6a, 0x3b, 0x72, 0x3e,
  0xfa, 0xfc, 0x63, 0x3e, 0x20, 0x6b, 0x7c, 0x3c, 0x0e, 0x14, 0x6b, 0x3e,
  0x99, 0x5b, 0x93, 0xbe, 0xe0, 0x7e, 0x12, 0x3e, 0x6c, 0xbd, 0xb6, 0x3d,
  0x80, 0xd7, 0x58, 0x3b, 0x70, 0x1f, 0x95, 0xbc, 0x82, 0x0f, 0x8a, 0xbe,
  0xa4, 0x3d, 0x85, 0x3d, 0xc0, 0xfd, 0x46, 0xbc, 0x40, 0x9f, 0x06, 0x3d,
  0x5a, 0x4b, 0x47, 0x3e, 0x04, 0xa6, 0x2f, 0x3e, 0xc8, 0x92, 0x39, 0x3d,
  0x5a, 0xec, 0xe8, 0xbd, 0x40, 0x4c, 0x6d, 0xbc, 0x09, 0x02, 0x09, 0xbe,
  0x39, 0x06, 0x18, 0xbe, 0x0e, 0x40, 0x8d, 0xbd, 0x18, 0xc2, 0x84, 0xbd,
  0x18, 0xeb, 0xa3, 0xbd, 0x08, 0x49, 0xfa, 0x3d, 0xed, 0xc8, 0xcc, 0x3e,
  0x4e, 0x82, 0x01, 0x3e, 0x20, 0x93, 0xcc, 0x3d, 0xa2, 0xfa, 0x35, 0xbe,
  0x13, 0x0e, 0xe6, 0xbd, 0x4a, 0x43, 0x55, 0x3e, 0x77, 0x06, 0x45, 0x3e,
  0xe0, 0x59, 0x86, 0xbc, 0x47, 0xd7, 0xe1, 0xbd, 0x3e, 0xb7, 0x50, 0x3e,
  0xe0, 0xb0, 0x5d, 0x3e, 0xa0, 0x4d, 0xce, 0x3c, 0x80, 0x94, 0xa9, 0xbd,
  0x00, 0x1f, 0x45, 0xbd, 0x35, 0xab, 0x97, 0xbe, 0x90, 0x5d, 0x73, 0x3d,
  0xc3, 0x00, 0x53, 0x3e, 0x47, 0x6a, 0x82, 0xbe, 0x18, 0x3a, 0x36, 0x3e,
  0xab, 0xa9, 0x86, 0x3e, 0x11, 0xf2, 0x50, 0x3e, 0x93, 0xe1, 0x21, 0xbe,
  0xaa, 0x07, 0x84, 0x3e, 0x31, 0x00, 0x9a, 0x3e, 0x3d, 0x9b, 0x62, 0x3e,
  0x68, 0xc0, 0x83, 0x3d, 0x0b, 0x9b, 0x8f, 0x3e, 0xda, 0x54, 0x78, 0xbe,
  0x3a, 0x0c, 0x3e, 0x3e, 0xc2, 0x29, 0x4c, 0xbe, 0xfc, 0xf5, 0xa6, 0x3d,
  0x46, 0x1e, 0x4e, 0x3e, 0x99, 0x6d, 0x4a, 0xbe, 0xc8, 0xcb, 0x3d, 0x3d,
  0x71, 0x1c, 0x94, 0x3e, 0x3c, 0xd5, 0x7d, 0xbe, 0xd9, 0xa2, 0x86, 0xbe,
  0xca, 0xb5, 0x6f, 0xbe, 0xb0, 0x6a, 0xf0, 0xbd, 0x1f, 0x3c, 0x9b, 0xbe,
  0xee, 0xc3, 0x5a, 0x3e, 0xa4, 0xb5, 0xd6, 0x3d, 0xec, 0x0c, 0x05, 0xbe,
  0x7c, 0x14, 0x77, 0xbe, 0x36, 0xf6, 0x8b, 0xbe, 0xe6, 0x14, 0x48, 0x3e,
  0x83, 0xbe, 0x83, 0x3e, 0xe6, 0x74, 0xc5, 0xbd, 0x81, 0xf0, 0x4d, 0xbe,
  0x72, 0xa2, 0xc5, 0xbd, 0x13, 0x86, 0x65, 0xbe, 0x44, 0x35, 0xfd, 0x3d,
  0xaa, 0x44, 0x35, 0x3e, 0xd1, 0xf6, 0x79, 0xbe, 0x2d, 0x1d, 0x93, 0x3e,
  0xef, 0x98, 0x1b, 0xbe, 0x94, 0x5a, 0xf8, 0x3d, 0x7d, 0xdf, 0x98, 0xbe,
  0x87, 0x7c, 0x8c, 0x3e, 0xb1, 0x78, 0x91, 0x3e, 0x88, 0x76, 0x21, 0xbd,
  0xb6, 0x9a, 0x93, 0xbe, 0xc0, 0x0e, 0xd3, 0xbb, 0x1c, 0x3b, 0x6c, 0xbe,
  0x22, 0x02, 0xae, 0xbe, 0x8d, 0x28, 0x62, 0xbe, 0x6e, 0xa2, 0x28, 0x3e,
  0xd8, 0xdf, 0x41, 0x3e, 0xe2, 0x63, 0xef, 0x3c, 0x19, 0x50, 0x20, 0x3e,
  0x41, 0xd6, 0x1f, 0x3d, 0x38, 0xbc, 0x1a, 0xbd, 0xd1, 0x17, 0xb7, 0xbe,
  0xfa, 0x39, 0x5c, 0x3e, 0x4c, 0x26, 0x56, 0xbe, 0x55, 0x36, 0x96, 0xbe,
  0x8e, 0x2c, 0x3d, 0xbe, 0xc0, 0xf9, 0xd1, 0xbc, 0xe0, 0x7e, 0xbe, 0xbc,
  0xb0, 0xca, 0x0f, 0x3e, 0x63, 0xc0, 0x05, 0xbe, 0x40, 0x49, 0x45, 0xbd,
  0xe8, 0xf3, 0x78, 0x3d, 0x40, 0xc9, 0x9f, 0x3c, 0xcc, 0xd1, 0x1c, 0xbe,
  0x83, 0xab, 0x8f, 0xbe, 0x42, 0x19, 0x8e, 0xbe, 0x80, 0xf0, 0xfd, 0xbd,
  0x34, 0x47, 0xc2, 0xbd, 0xd8, 0x96, 0x39, 0x3e, 0xa4, 0x22, 0x9e, 0xbd,
  0x87, 0x9d, 0x81, 0xbe, 0xcf, 0x9e, 0x9b, 0xbe, 0x9e, 0xc4, 0xae, 0xbd,
  0x55, 0x42, 0x87, 0x3e, 0xab, 0x9d, 0x86, 0x3e, 0xbb, 0x7f, 0x8a, 0xbe,
  0x34, 0xd0, 0xb0, 0xbc, 0xc4, 0x47, 0xe7, 0x3d, 0xbb, 0x4b, 0x8c, 0xbd,
  0x32, 0x91, 0x3b, 0x3e, 0x16, 0x84, 0x89, 0xbe, 0x09, 0xd4, 0x47, 0xbc,
  0x90, 0x1d, 0x0e, 0x3e, 0x17, 0x10, 0x88, 0xbe, 0xb4, 0xca, 0x9e, 0x3d,
  0xfe, 0xf4, 0xa4, 0xbe, 0x3f, 0x98, 0x9c, 0xbe, 0x18, 0xeb, 0xe9, 0x3d,
  0x88, 0xe2, 0x72, 0xbd, 0x50, 0x14, 0x89, 0x3d, 0xf8, 0xe0, 0x50, 0xbd,
  0x04, 0x2a, 0x17, 0x3e, 0xab, 0xe1, 0x61, 0xbe, 0x8b, 0x50, 0x28, 0x3d,
  0x2b, 0x6d, 0x69, 0x3e, 0xdb, 0x5b, 0x86, 0xbc, 0x68, 0xf4, 0x81, 0xbe,
  0x0e, 0x65, 0x8c, 0x3e, 0x60, 0x5a, 0x87, 0x3d, 0xcd, 0xc9, 0xb7, 0x3d,
  0x74, 0x73, 0x31, 0x3e, 0xea, 0x97, 0x17, 0x3e, 0xd4, 0x0f, 0xe9, 0xbd,
  0x02, 0x12, 0xd9, 0xbd, 0x98, 0xb3, 0xe0, 0x3d, 0x80, 0x0b, 0x2c, 0x3d,
  0x48, 0x35, 0x07, 0xbe, 0x00, 0x33, 0x21, 0xbd, 0x66, 0xda, 0xc1, 0xbd,
  0xd2, 0xb5, 0x52, 0xbe, 0x43, 0x90, 0x8b, 0x3e, 0x00, 0x1f, 0x8b, 0xbc,
  0x7b, 0x2b, 0x99, 0xbe, 0x4a, 0xb4, 0x1c, 0x3e, 0xc0, 0xbc, 0x5e, 0x3d,
  0x30, 0xc7, 0xa8, 0x3c, 0xbc, 0x32, 0x1a, 0xbe, 0xe2, 0x8c, 0xd3, 0xbd,
  0x88, 0x95, 0x1b, 0x3e, 0xf0, 0x85, 0x6f, 0x3d, 0x2c, 0x3c, 0x3f, 0xbe,
  0x05, 0x36, 0x6c, 0xbe, 0x24, 0x30, 0x92, 0x3d, 0xeb, 0x99, 0x2d, 0xbe,
  0x41, 0xd3, 0x89, 0x3e, 0xbd, 0x3b, 0x7d, 0xbe, 0x50, 0xde, 0x21, 0x3d,
  0x28, 0x24, 0xf5, 0xbd, 0x02, 0x6a, 0x5a, 0xbe, 0x20, 0x52, 0x10, 0xbd,
  0xf6, 0xb1, 0x22, 0x3e, 0xbb, 0x27, 0x9c, 0x3e, 0xce, 0x12, 0x77, 0xbe,
  0x14, 0x88, 0xec, 0x3d, 0xb8, 0xae, 0x2d, 0xbe, 0x60, 0xd3, 0xe2, 0x3d,
  0xa6, 0x22, 0x0d, 0x3e, 0x20, 0x45, 0x1a, 0xbe, 0x72, 0xe7, 0x8f, 0xbd,
  0x4a, 0x56, 0x2b, 0xbe, 0x24, 0x80, 0x65, 0x3e, 0xf4, 0x96, 0x10, 0x3e,
  0x33, 0xee, 0x91, 0x3e, 0x0c, 0xd0, 0xbf, 0x3d, 0x3f, 0x51, 0x8e, 0x3e,
  0x64, 0x18, 0x80, 0x3e, 0x44, 0x93, 0xf1, 0x3d, 0x2f, 0xf8, 0x8f, 0x3e,
  0xfc, 0x74, 0x09, 0x3e, 0x81, 0x50, 0x6f, 0x3e, 0x22, 0xb2, 0x7e, 0x3e,
  0x70, 0x1e, 0x8b, 0x3d, 0xd4, 0xaa, 0x1b, 0x3e, 0x98, 0x1a, 0xd3, 0xbd,
  0xbe, 0xfe, 0x19, 0x3e, 0x8d, 0x7e, 0xc2, 0xbc, 0x5b, 0x69, 0x93, 0xbe,
  0x06, 0x92, 0x96, 0xbe, 0xd6, 0xb2, 0x5a, 0xbe, 0xfa, 0x91, 0x1b, 0x3e,
  0x13, 0x25, 0x08, 0x3e, 0x2f, 0x56, 0x89, 0x3e, 0x92, 0x3c, 0x31, 0x3e,
  0x10, 0xc2, 0x88, 0x3d, 0xd4, 0xcd, 0x84, 0xbe, 0x0f, 0xd6, 0x00, 0xbe,
  0xc8, 0x5a, 0x33, 0x3d, 0x00, 0xcf, 0xdd, 0xbc, 0xe8, 0x76, 0x37, 0xbd,
  0xdc, 0xf8, 0xaa, 0xbd, 0x6b, 0xe3, 0x94, 0x3e, 0x68, 0x2f, 0xf0, 0x3c,
  0x15, 0x7f, 0xbd, 0x3d, 0x04, 0xb5, 0x87, 0xbe, 0x65, 0xe5, 0x12, 0xbe,
  0x0d, 0xef, 0x0a, 0x3e, 0x1f, 0x9d, 0x8e, 0x3e, 0xb3, 0xa6, 0x43, 0x3e,
  0x06, 0x54, 0x3a, 0xbe, 0x8b, 0x2a, 0xf4, 0xbc, 0x97, 0xbf, 0x34, 0xbe,
  0xfd, 0xa7, 0xdc, 0xbd, 0x30, 0x94, 0x0a, 0x3e, 0xea, 0x5a, 0x36, 0x3e,
  0x2e, 0x04, 0x87, 0xbd, 0xa6, 0x86, 0x7e, 0xbe, 0xf4, 0x73, 0x35, 0xbe,
  0x2f, 0xe2, 0x8d, 0xbe, 0xb2, 0x1e, 0x6b, 0x3e, 0x1c, 0x49, 0x3f, 0xbe,
  0xbb, 0x74, 0x9b, 0x3e, 0xf4, 0x65, 0x47, 0xbe, 0x5c, 0x64, 0xd8, 0xbd,
  0xd0, 0x8b, 0xc8, 0xbd, 0x48, 0x74, 0xc1, 0x3d, 0x70, 0xfa, 0x59, 0xbe,
  0x8e, 0x50, 0x39, 0x3e, 0xd8, 0x74, 0xf2, 0xbd, 0x97, 0xfd, 0x43, 0xbe,
  0x4c, 0x23, 0x3d, 0xbe, 0xb2, 0xb1, 0x4f, 0x3e, 0x22, 0xbb, 0xba, 0xbd,
  0x60, 0xaa, 0x7c, 0xbe, 0xf5, 0x73, 0x99, 0x3d, 0x24, 0x12, 0x7d, 0xbe,
  0x53, 0x33, 0x07, 0xbb, 0x5e, 0x6b, 0x3f, 0x3d, 0xb8, 0x01, 0x1c, 0xbd,
  0x6d, 0x52, 0x6d, 0xbd, 0x92, 0x16, 0xe4, 0xbd, 0x73, 0x91, 0x92, 0xbe,
  0x27, 0x64, 0x48, 0xbe, 0x40, 0x81, 0xc2, 0xbc, 0x5d, 0xd1, 0x48, 0xbe,
  0x7a, 0x81, 0xa5, 0xbd, 0xe4, 0xe4, 0x23, 0x3e, 0x14, 0xf0, 0xb0, 0xbd,
  0x68, 0xd5, 0x15, 0x3e, 0x52, 0xcc, 0x74, 0x3e, 0x50, 0x7c, 0x56, 0x3d,
  0x7b, 0x91, 0xae, 0xbe, 0xf0, 0x5f, 0x81, 0x3d, 0x58, 0x8c, 0x7e, 0x3d,
  0x13, 0x03, 0x2b, 0x3e, 0x4f, 0x63, 0x32, 0x3e, 0xff, 0xee, 0x74, 0x3e,
  0x8c, 0x5c, 0xc0, 0x3d, 0x2a, 0xda, 0xde, 0x3d, 0xc4, 0x7e, 0x8f, 0xbd,
  0xea, 0xeb, 0x9d, 0xbb, 0x06, 0x60, 0x04, 0xbe, 0xae, 0x71, 0x0f, 0x3e,
  0x00, 0x18, 0xd9, 0xbc, 0xae, 0x49, 0x48, 0xbe, 0x00, 0x00, 0x53, 0xbd,
  0x56, 0xf2, 0x2a, 0xbe, 0x8a, 0xe6, 0x94, 0xbe, 0x12, 0xe9, 0x7b, 0x3e,
  0xb1, 0x36, 0x57, 0xbe, 0x1e, 0xe6, 0xdd, 0xbd, 0x6a, 0x53, 0x5d, 0x3e,
  0x38, 0x80, 0x30, 0xbd, 0xba, 0x2f, 0xdb, 0xbd, 0xb8, 0x74, 0x8d, 0xbd,
  0xdf, 0x3f, 0x4b, 0xbe, 0xa0, 0xb5, 0x17, 0xbc, 0x91, 0xaa, 0x94, 0x3e,
  0x20, 0x66, 0xde, 0x3c, 0xad, 0x7e, 0x8c, 0x3e, 0xe0, 0xb9, 0xec, 0x3d,
  0xde, 0x65, 0x4a, 0x3e, 0xc9, 0x27, 0x91, 0xbe, 0x48, 0x0b, 0x2e, 0xbe,
  0x14, 0xe9, 0xad, 0x3d, 0x05, 0xac, 0x14, 0xbe, 0x9e, 0x78, 0x57, 0x3e,
  0x60, 0x42, 0x5c, 0xbc, 0x5c, 0xe7, 0x38, 0x3e, 0x30, 0xf6, 0x9b, 0xbe,
  0x18, 0xcc, 0xec, 0x3d, 0xc0, 0xde, 0xbc, 0xbd, 0xca, 0x9f, 0x8c, 0xbe,
  0xa0, 0xb1, 0x4d, 0xbc, 0xa1, 0x86, 0x8a, 0x3e, 0x0e, 0xd2, 0x64, 0xbe,
  0x14, 0xc8, 0xd6, 0xbd, 0xa0, 0x52, 0x29, 0xbd, 0x35, 0xe6, 0xac, 0x3e,
  0x65, 0x70, 0x96, 0x3d, 0x26, 0xcc, 0x8b, 0x3d, 0x63, 0x6a, 0xd1, 0x3e,
  0x6a, 0x46, 0x92, 0x3e, 0x62, 0xe1, 0x8b, 0x3e, 0x61, 0x53, 0x02, 0x3e,
  0x55, 0x70, 0x14, 0xbe, 0x8d, 0x6e, 0xc3, 0x3e, 0x61, 0x49, 0x8d, 0x3e,
  0xd9, 0xd7, 0xd4, 0x3d, 0x8e, 0xcb, 0x77, 0x3e, 0x00, 0x7b, 0x28, 0x3d,
  0xb0, 0x7f, 0x12, 0x3d, 0xb0, 0x57, 0x5a, 0x3d, 0x8a, 0x17, 0xb5, 0xbd,
  0x73, 0x46, 0x28, 0x3e, 0x8d, 0xc0, 0x02, 0xbd, 0x94, 0xe4, 0x88, 0xbe,
  0x40, 0x5e, 0xaf, 0x3c, 0xf0, 0xb0, 0xe9, 0x3d, 0xd2, 0xcd, 0x98, 0xbe,
  0x0a, 0x7d, 0x51, 0xbe, 0xa4, 0x4b, 0xc6, 0x3d, 0xd1, 0xe3, 0xd6, 0xbd,
  0xa0, 0x91, 0x52, 0xbc, 0x61, 0x9a, 0x86, 0x3d, 0x71, 0x45, 0x8a, 0x3e,
  0xba, 0xfe, 0x49, 0x3e, 0xb2, 0xc5, 0x19, 0xbe, 0x00, 0x54, 0x8a, 0x3d,
  0xb1, 0x68, 0x9a, 0xbe, 0x58, 0x70, 0x13, 0x3d, 0x7e, 0x8e, 0x48, 0xbe,
  0x92, 0x0e, 0x5a, 0xbe, 0x3f, 0x55, 0x98, 0x3e, 0x40, 0x1b, 0xe4, 0x3c,
  0xb1, 0xa0, 0x97, 0xbe, 0x36, 0x7e, 0x65, 0xbe, 0x9d, 0x6e, 0x81, 0xbe,
  0xc0, 0x6e, 0x84, 0x3c, 0x12, 0x60, 0x54, 0xbe, 0xf8, 0xa7, 0x65, 0x3d,
  0x10, 0xeb, 0x9f, 0xbc, 0x88, 0x3c, 0x28, 0x3d, 0xec, 0x72, 0xa7, 0x3d,
  0x48, 0x87, 0x34, 0xbd, 0x5c, 0x34, 0xdf, 0xbd, 0x88, 0xf5, 0x16, 0xbd,
  0x94, 0xe3, 0x4c, 0xbe, 0x78, 0xb3, 0x29, 0x3d, 0x85, 0xa6, 0x99, 0xbe,
  0xe0, 0x4a, 0x58, 0xbd, 0xa7, 0xc1, 0x87, 0x3e, 0x3c, 0x87, 0xec, 0x3d,
  0xd8, 0x2f, 0xe3, 0x3d, 0xc3, 0x76, 0x27, 0xbe, 0xe6, 0x34, 0x83, 0xbe,
  0x4a, 0xe0, 0x0d, 0xbe, 0xe8, 0xa9, 0x30, 0x3e, 0xd8, 0x09, 0x07, 0x3e,
  0xd8, 0x41, 0xf3, 0x3d, 0x68, 0x9d, 0x68, 0x3d, 0x11, 0x20, 0x32, 0xbe,
  0xee, 0xba, 0x5f, 0x3e, 0x94, 0x21, 0x19, 0xbe, 0xc0, 0x19, 0x95, 0x3b,
  0xc8, 0x68, 0x89, 0xbd, 0x80, 0x88, 0x8e, 0xbe, 0xd6, 0x16, 0x18, 0x3e,
  0xa0, 0x57, 0xa6, 0x3c, 0xd8, 0x8f, 0xae, 0xbd, 0xd2, 0x96, 0x67, 0x3e,
  0xde, 0x9b, 0x90, 0xbd, 0x44, 0x41, 0x79, 0xbe, 0x00, 0xc3, 0x73, 0x3b,
  0x88, 0xe3, 0xf2, 0x3d, 0x70, 0x56, 0x02, 0x3e, 0xd0, 0x92, 0xce, 0xbc,
  0x80, 0xf2, 0x2a, 0xbd, 0xe8, 0xc9, 0xc9, 0x3d, 0xa9, 0xd9, 0x94, 0x3e,
  0x06, 0xb7, 0x18, 0x3e, 0x88, 0x61, 0x09, 0xbd, 0x84, 0x06, 0x13, 0xbe,
  0x02, 0xa0, 0x50, 0xbe, 0xf3, 0xcd, 0x98, 0xbe, 0xc4, 0xf7, 0x7a, 0xbe,
  0xe0, 0x94, 0x22, 0xbd, 0x80, 0xa2, 0x61, 0xbd, 0x80, 0xc6, 0x84, 0x3d,
  0x28, 0x82, 0x4a, 0x3d, 0xe2, 0x42, 0x81, 0xbd, 0x4f, 0xc5, 0x93, 0x3e,
  0x3f, 0xd8, 0x94, 0x3e, 0x06, 0xff, 0x75, 0x3e, 0xd1, 0xc0, 0x6a, 0xbe,
  0xe2, 0x60, 0x51, 0x3e, 0xeb, 0xb4, 0x2f, 0xbe, 0x46, 0x02, 0xd9, 0xbd,
  0x96, 0x54, 0x97, 0xbe, 0x78, 0x75, 0xf7, 0x3d, 0x68, 0xae, 0xa4, 0x3d,
  0x51, 0x76, 0x00, 0xbe, 0x6e, 0x87, 0x1a, 0x3e, 0x5f, 0x3b, 0x95, 0x3e,
  0x32, 0xcd, 0x62, 0xbe, 0xe8, 0x7c, 0x7f, 0xbd, 0x6a, 0x8b, 0x05, 0x3e,
  0xea, 0xd1, 0x4c, 0x3e, 0x79, 0xa2, 0x4c, 0xbe, 0x08, 0xf5, 0x9e, 0x3d,
  0xa0, 0x68, 0xaf, 0x3d, 0xc8, 0xe4, 0x56, 0xbd, 0x7a, 0x1e, 0x5c, 0x3e,
  0x98, 0xaf, 0xd7, 0xbd, 0x40, 0x7a, 0xa2, 0x3b, 0xca, 0xd6, 0x5f, 0xbe,
  0x8a, 0x8d, 0x83, 0xbd, 0x08, 0xde, 0x13, 0xbe, 0xfc, 0xcd, 0x44, 0x3e,
  0x5c, 0x52, 0x87, 0xbe, 0x78, 0xb5, 0x6c, 0xbe, 0x70, 0x25, 0x3d, 0xbd,
  0x40, 0x02, 0x86, 0xbd, 0xfc, 0x08, 0x6f, 0xbe, 0xf6, 0x60, 0xb6, 0xbd,
  0x00, 0xba, 0x44, 0x3a, 0x9c, 0xc5, 0x26, 0xbe, 0x5d, 0x4e, 0xc9, 0xbd,
  0xb3, 0xaf, 0x29, 0x3d, 0x56, 0xdc, 0x1d, 0xbe, 0x30, 0x6d, 0x1b, 0xbe,
  0x93, 0xf7, 0x9a, 0x3d, 0xb6, 0x4e, 0x00, 0xbe, 0x42, 0xc2, 0x46, 0xbe,
  0x4e, 0xc4, 0x4b, 0x3e, 0x52, 0x7b, 0x88, 0xbe, 0x03, 0xed, 0x00, 0xbe,
  0x4a, 0x3e, 0x08, 0x3e, 0x70, 0xbe, 0x0a, 0x3d, 0xb0, 0x60, 0x1a, 0xbd,
  0xdf, 0xb9, 0x21, 0xbe, 0x5c, 0xa0, 0x91, 0x3d, 0x8e, 0x90, 0x01, 0x3c,
  0xcf, 0x1c, 0x40, 0x3d, 0xb3, 0xac, 0x83, 0x3d, 0x56, 0x8a, 0x3b, 0x3e,
  0x44, 0x2e, 0x92, 0xbd, 0xa9, 0x2f, 0x51, 0xbd, 0x76, 0xda, 0xaa, 0xbe,
  0x8c, 0x89, 0x43, 0xbe, 0x3a, 0x05, 0x74, 0xbe, 0xa8, 0x11, 0x5e, 0xbe,
  0x83, 0x9b, 0x87, 0x3e, 0x4e, 0x34, 0x05, 0xbe, 0xec, 0xa6, 0x19, 0x3e,
  0x82, 0x96, 0x64, 0x3e, 0xcf, 0x0d, 0x2e, 0xbe, 0x88, 0xca, 0x5e, 0xbe,
  0x4d, 0x8e, 0x8c, 0x3e, 0x58, 0xbd, 0x0f, 0xbe, 0xde, 0x19, 0x13, 0xbe,
  0xf9, 0x39, 0x43, 0x3e, 0x54, 0x61, 0xcb, 0xbd, 0xd3, 0x31, 0xcd, 0x3d,
  0xb7, 0x00, 0xd3, 0x3e, 0x28, 0xc7, 0x7f, 0xbd, 0x3b, 0xef, 0x22, 0xbd,
  0x12, 0x2b, 0x7f, 0x3e, 0x3d, 0xeb, 0x09, 0x3e, 0x41, 0xcb, 0x07, 0xbe,
  0xfb, 0x1a, 0x90, 0x3e, 0xd4, 0x51, 0x82, 0x3d, 0x88, 0x74, 0x26, 0xbe,
  0x24, 0xaf, 0xdb, 0xbd, 0xe6, 0x85, 0xb0, 0xbe, 0x2f, 0xe5, 0x91, 0x3e,
  0x58, 0xaf, 0x12, 0xbe, 0x8e, 0x1f, 0x99, 0x3e, 0xc8, 0xa6, 0x5c, 0x3e,
  0x8e, 0x3b, 0x7b, 0xbe, 0x22, 0xcb, 0x03, 0xbe, 0xe0, 0xdb, 0x87, 0xbe,
  0xea, 0x55, 0xcf, 0xbd, 0xee, 0xf3, 0x32, 0xbe, 0x21, 0x82, 0x4d, 0x3e,
  0xbb, 0xd6, 0x85, 0x3e, 0xc8, 0xaa, 0x5b, 0xbd, 0x46, 0xe4, 0x88, 0xbd,
  0x00, 0xa8, 0xc0, 0xba, 0x88, 0xe1, 0x3a, 0x3d, 0x00, 0x00, 0x00, 0x00,
  0x02, 0xfd, 0xff, 0xff, 0x04, 0x00, 0x00, 0x00, 0x80, 0x00, 0x00, 0x00,
  0x87, 0xa9, 0x12, 0x3e, 0x02, 0xb9, 0x9c, 0x3d, 0x0c, 0xd7, 0xc5, 0x3e,
  0x99, 0xb2, 0x07, 0xbe, 0xde, 0xe5, 0x86, 0x3e, 0x0b, 0x39, 0x9b, 0x3e,
  0x5c, 0x4f, 0xc0, 0x3e, 0x32, 0xe4, 0xd8, 0x3e, 0xcf, 0x0c, 0x07, 0x3d,
  0xaa, 0x44, 0xa9, 0xbe, 0xa0, 0x9e, 0x35, 0x3e, 0x4a, 0xd1, 0xe0, 0x3e,
  0x18, 0xcd, 0x3c, 0x3d, 0x2f, 0x1a, 0xe4, 0x3e, 0xb0, 0x80, 0xd6, 0xbe,
  0xa9, 0xc8, 0xa6, 0x3e, 0xc2, 0xa5, 0x59, 0x3e, 0xd3, 0xf1, 0x6e, 0xbe,
  0x7f, 0x9d, 0xc3, 0xbe, 0x73, 0x60, 0x42, 0xbe, 0x75, 0x97, 0x03, 0x3f,
  0xaf, 0xb0, 0x99, 0x3e, 0x14, 0x68, 0xb3, 0xbe, 0x5e, 0xef, 0x43, 0x3e,
  0xde, 0x3d, 0x86, 0xbe, 0x05, 0x50, 0x4d, 0xbe, 0x54, 0xd2, 0x81, 0xbe,
  0x24, 0x7c, 0xb9, 0xbd, 0x6a, 0x0a, 0xa6, 0xbe, 0xe0, 0x38, 0xb6, 0xbc,
  0x42, 0xcc, 0xc3, 0xbe, 0x00, 0x54, 0x9b, 0xbe, 0x00, 0x00, 0x00, 0x00,
  0x92, 0xfd, 0xff, 0xff, 0x04, 0x00, 0x00, 0x00, 0x04, 0x00, 0x00, 0x00,
  0xfd, 0xff, 0xff, 0xff, 0xa2, 0xfd, 0xff, 0xff, 0x04, 0x00, 0x00, 0x00,
  0x04, 0x00, 0x00, 0x00, 0x02, 0x00, 0x00, 0x00, 0xb2, 0xfd, 0xff, 0xff,
  0x04, 0x00, 0x00, 0x00, 0x04, 0x00, 0x00, 0x00, 0x01, 0x00, 0x00, 0x00,
  0xc2, 0xfd, 0xff, 0xff, 0x04, 0x00, 0x00, 0x00, 0x40, 0x00, 0x00, 0x00,
  0x02, 0x92, 0xf5, 0x3c, 0x43, 0xd2, 0x05, 0x3e, 0xdb, 0xa0, 0x0b, 0xbd,
  0x7f, 0x13, 0xaa, 0x3d, 0xf0, 0x4b, 0xab, 0xbd, 0x50, 0x3d, 0x2f, 0x3e,
  0x43, 0x1e, 0xdb, 0x3d, 0x00, 0x00, 0x00, 0x00, 0x8f, 0x07, 0x9b, 0x3d,
  0x00, 0x00, 0x00, 0x00, 0xf0, 0x3d, 0xdb, 0x3d, 0x00, 0x00, 0x00, 0x00,
  0x00, 0x00, 0x00, 0x00, 0x00, 0x00, 0x00, 0x00, 0x00, 0x00, 0x00, 0x00,
  0x00, 0x00, 0x00, 0x00, 0x00, 0x00, 0x00, 0x00, 0x12, 0xfe, 0xff, 0xff,
  0x04, 0x00, 0x00, 0x00, 0x40, 0x00, 0x00, 0x00, 0x00, 0x00, 0x00, 0x00,
  0xdb, 0xe6, 0xe3, 0x3d, 0x00, 0x00, 0x00, 0x00, 0xfd, 0xd4, 0x89, 0xbd,
  0x38, 0x7c, 0x90, 0xbc, 0x00, 0x00, 0x00, 0x00, 0x3d, 0x92, 0xed, 0x3d,
  0xb1, 0x84, 0x50, 0xbc, 0xae, 0x19, 0x47, 0xbd, 0x00, 0x00, 0x00, 0x00,
  0x57, 0x40, 0x11, 0x3e, 0x00, 0x00, 0x00, 0x00, 0x00, 0x00, 0x00, 0x00,
  0x00, 0x00, 0x00, 0x00, 0x4b, 0xb4, 0x25, 0xbd, 0x0d, 0x8a, 0xf3, 0x3d,
  0x00, 0x00, 0x00, 0x00, 0x62, 0xfe, 0xff, 0xff, 0x04, 0x00, 0x00, 0x00,
  0x04, 0x00, 0x00, 0x00, 0x74, 0xcf, 0xe0, 0x3d, 0x00, 0x00, 0x00, 0x00,
  0x00, 0x00, 0x00, 0x00, 0x74, 0xf0, 0xff, 0xff, 0x00, 0x00, 0x00, 0x00,
  0x00, 0x00, 0x00, 0x00, 0x00, 0x00, 0x00, 0x00, 0x84, 0xf0, 0xff, 0xff,
  0x0f, 0x00, 0x00, 0x00, 0x4d, 0x4c, 0x49, 0x52, 0x20, 0x43, 0x6f, 0x6e,
  0x76, 0x65, 0x72, 0x74, 0x65, 0x64, 0x2e, 0x00, 0x01, 0x00, 0x00, 0x00,
  0x14, 0x00, 0x00, 0x00, 0x00, 0x00, 0x0e, 0x00, 0x18, 0x00, 0x04, 0x00,
  0x08, 0x00, 0x0c, 0x00, 0x10, 0x00, 0x14, 0x00, 0x0e, 0x00, 0x00, 0x00,
  0x7c, 0x03, 0x00, 0x00, 0x70, 0x03, 0x00, 0x00, 0x64, 0x03, 0x00, 0x00,
  0x14, 0x00, 0x00, 0x00, 0x04, 0x00, 0x00, 0x00, 0x04, 0x00, 0x00, 0x00,
  0x6d, 0x61, 0x69, 0x6e, 0x00, 0x00, 0x00, 0x00, 0x0e, 0x00, 0x00, 0x00,
  0x1c, 0x03, 0x00, 0x00, 0xbc, 0x02, 0x00, 0x00, 0x84, 0x02, 0x00, 0x00,
  0x48, 0x02, 0x00, 0x00, 0xf8, 0x01, 0x00, 0x00, 0xc0, 0x01, 0x00, 0x00,
  0x90, 0x01, 0x00, 0x00, 0x4c, 0x01, 0x00, 0x00, 0x24, 0x01, 0x00, 0x00,
  0xe0, 0x00, 0x00, 0x00, 0xa0, 0x00, 0x00, 0x00, 0x70, 0x00, 0x00, 0x00,
  0x2c, 0x00, 0x00, 0x00, 0x04, 0x00, 0x00, 0x00, 0xb6, 0xfd, 0xff, 0xff,
  0x02, 0x00, 0x00, 0x00, 0x10, 0x00, 0x00, 0x00, 0x04, 0x00, 0x00, 0x00,
  0x01, 0x00, 0x00, 0x00, 0x1b, 0x00, 0x00, 0x00, 0x02, 0x00, 0x00, 0x00,
  0x1a, 0x00, 0x00, 0x00, 0x0c, 0x00, 0x00, 0x00, 0xaa, 0xfd, 0xff, 0xff,
  0x00, 0x00, 0x00, 0x01, 0x01, 0x00, 0x00, 0x00, 0x24, 0x00, 0x00, 0x00,
  0x18, 0x00, 0x00, 0x00, 0x04, 0x00, 0x00, 0x00, 0x9c, 0xfd, 0xff, 0xff,
  0x00, 0x00, 0x00, 0x01, 0x01, 0x00, 0x00, 0x00, 0x01, 0x00, 0x00, 0x00,
  0x01, 0x00, 0x00, 0x00, 0x1a, 0x00, 0x00, 0x00, 0x03, 0x00, 0x00, 0x00,
  0x19, 0x00, 0x00, 0x00, 0x09, 0x00, 0x00, 0x00, 0x01, 0x00, 0x00, 0x00,
  0x8e, 0xfd, 0xff, 0xff, 0x00, 0x00, 0x00, 0x34, 0x18, 0x00, 0x00, 0x00,
  0x0c, 0x00, 0x00, 0x00, 0x04, 0x00, 0x00, 0x00, 0x8c, 0xf1, 0xff, 0xff,
  0x01, 0x00, 0x00, 0x00, 0x19, 0x00, 0x00, 0x00, 0x02, 0x00, 0x00, 0x00,
  0x18, 0x00, 0x00, 0x00, 0x06, 0x00, 0x00, 0x00, 0x16, 0xfe, 0xff, 0xff,
  0x00, 0x00, 0x00, 0x0a, 0x05, 0x00, 0x00, 0x00, 0x1c, 0x00, 0x00, 0x00,
  0x10, 0x00, 0x00, 0x00, 0x04, 0x00, 0x00, 0x00, 0xc2, 0xff, 0xff, 0xff,
  0x01, 0x00, 0x00, 0x00, 0x01, 0x00, 0x00, 0x00, 0x18, 0x00, 0x00, 0x00,
  0x04, 0x00, 0x00, 0x00, 0x16, 0x00, 0x00, 0x00, 0x16, 0x00, 0x00, 0x00,
  0x17, 0x00, 0x00, 0x00, 0x17, 0x00, 0x00, 0x00, 0x0a, 0xff, 0xff, 0xff,
  0x00, 0x00, 0x00, 0x23, 0x04, 0x00, 0x00, 0x00, 0x28, 0x00, 0x00, 0x00,
  0x18, 0x00, 0x00, 0x00, 0x0c, 0x00, 0x00, 0x00, 0x00, 0x00, 0x06, 0x00,
  0x08, 0x00, 0x04, 0x00, 0x06, 0x00, 0x00, 0x00, 0x02, 0x00, 0x00, 0x00,
  0x02, 0x00, 0x00, 0x00, 0x16, 0x00, 0x00, 0x00, 0x17, 0x00, 0x00, 0x00,
  0x02, 0x00, 0x00, 0x00, 0x04, 0x00, 0x00, 0x00, 0x15, 0x00, 0x00, 0x00,
  0xc2, 0xfe, 0xff, 0xff, 0x02, 0x00, 0x00, 0x00, 0x10, 0x00, 0x00, 0x00,
  0x04, 0x00, 0x00, 0x00, 0x01, 0x00, 0x00, 0x00, 0x15, 0x00, 0x00, 0x00,
  0x02, 0x00, 0x00, 0x00, 0x14, 0x00, 0x00, 0x00, 0x0b, 0x00, 0x00, 0x00,
  0xb6, 0xfe, 0xff, 0xff, 0x00, 0x00, 0x00, 0x01, 0x01, 0x00, 0x00, 0x00,
  0x24, 0x00, 0x00, 0x00, 0x18, 0x00, 0x00, 0x00, 0x04, 0x00, 0x00, 0x00,
  0xa8, 0xfe, 0xff, 0xff, 0x00, 0x00, 0x00, 0x01, 0x01, 0x00, 0x00, 0x00,
  0x01, 0x00, 0x00, 0x00, 0x01, 0x00, 0x00, 0x00, 0x14, 0x00, 0x00, 0x00,
  0x03, 0x00, 0x00, 0x00, 0x13, 0x00, 0x00, 0x00, 0x08, 0x00, 0x00, 0x00,
  0x02, 0x00, 0x00, 0x00, 0x9a, 0xfe, 0xff, 0xff, 0x00, 0x00, 0x00, 0x34,
  0x18, 0x00, 0x00, 0x00, 0x0c, 0x00, 0x00, 0x00, 0x04, 0x00, 0x00, 0x00,
  0x98, 0xf2, 0xff, 0xff, 0x01, 0x00, 0x00, 0x00, 0x13, 0x00, 0x00, 0x00,
  0x02, 0x00, 0x00, 0x00, 0x12, 0x00, 0x00, 0x00, 0x06, 0x00, 0x00, 0x00,
  0x52, 0xff, 0xff, 0xff, 0x02, 0x00, 0x00, 0x00, 0x10, 0x00, 0x00, 0x00,
  0x04, 0x00, 0x00, 0x00, 0x01, 0x00, 0x00, 0x00, 0x12, 0x00, 0x00, 0x00,
  0x02, 0x00, 0x00, 0x00, 0x11, 0x00, 0x00, 0x00, 0x0b, 0x00, 0x00, 0x00,
  0x00, 0x00, 0x0e, 0x00, 0x1a, 0x00, 0x08, 0x00, 0x0c, 0x00, 0x10, 0x00,
  0x07, 0x00, 0x14, 0x00, 0x0e, 0x00, 0x00, 0x00, 0x00, 0x00, 0x00, 0x05,
  0x03, 0x00, 0x00, 0x00, 0x38, 0x00, 0x00, 0x00, 0x2c, 0x00, 0x00, 0x00,
  0x14, 0x00, 0x00, 0x00, 0x00, 0x00, 0x0e, 0x00, 0x14, 0x00, 0x00, 0x00,
  0x04, 0x00, 0x08, 0x00, 0x0c, 0x00, 0x10, 0x00, 0x0e, 0x00, 0x00, 0x00,
  0x01, 0x00, 0x00, 0x00, 0x02, 0x00, 0x00, 0x00, 0x01, 0x00, 0x00, 0x00,
  0x02, 0x00, 0x00, 0x00, 0x01, 0x00, 0x00, 0x00, 0x11, 0x00, 0x00, 0x00,
  0x01, 0x00, 0x00, 0x00, 0x10, 0x00, 0x00, 0x00, 0x46, 0xff, 0xff, 0xff,
  0x00, 0x00, 0x00, 0x34, 0x18, 0x00, 0x00, 0x00, 0x0c, 0x00, 0x00, 0x00,
  0x04, 0x00, 0x00, 0x00, 0x44, 0xf3, 0xff, 0xff, 0x01, 0x00, 0x00, 0x00,
  0x10, 0x00, 0x00, 0x00, 0x02, 0x00, 0x00, 0x00, 0x0f, 0x00, 0x00, 0x00,
  0x05, 0x00, 0x00, 0x00, 0x00, 0x00, 0x0a, 0x00, 0x10, 0x00, 0x04, 0x00,
  0x08, 0x00, 0x0c, 0x00, 0x0a, 0x00, 0x00, 0x00, 0x02, 0x00, 0x00, 0x00,
  0x10, 0x00, 0x00, 0x00, 0x04, 0x00, 0x00, 0x00, 0x01, 0x00, 0x00, 0x00,
  0x0f, 0x00, 0x00, 0x00, 0x02, 0x00, 0x00, 0x00, 0x0e, 0x00, 0x00, 0x00,
  0x0a, 0x00, 0x00, 0x00, 0x00, 0x00, 0x0e, 0x00, 0x18, 0x00, 0x08, 0x00,
  0x0c, 0x00, 0x10, 0x00, 0x07, 0x00, 0x14, 0x00, 0x0e, 0x00, 0x00, 0x00,
  0x00, 0x00, 0x00, 0x01, 0x01, 0x00, 0x00, 0x00, 0x30, 0x00, 0x00, 0x00,
  0x24, 0x00, 0x00, 0x00, 0x10, 0x00, 0x00, 0x00, 0x0c, 0x00, 0x10, 0x00,
  0x00, 0x00, 0x08, 0x00, 0x0c, 0x00, 0x07, 0x00, 0x0c, 0x00, 0x00, 0x00,
  0x00, 0x00, 0x00, 0x01, 0x01, 0x00, 0x00, 0x00, 0x01, 0x00, 0x00, 0x00,
  0x01, 0x00, 0x00, 0x00, 0x0e, 0x00, 0x00, 0x00, 0x03, 0x00, 0x00, 0x00,
  0x0d, 0x00, 0x00, 0x00, 0x07, 0x00, 0x00, 0x00, 0x03, 0x00, 0x00, 0x00,
  0x00, 0x00, 0x0e, 0x00, 0x14, 0x00, 0x00, 0x00, 0x08, 0x00, 0x0c, 0x00,
  0x07, 0x00, 0x10, 0x00, 0x0e, 0x00, 0x00, 0x00, 0x00, 0x00, 0x00, 0x34,
  0x18, 0x00, 0x00, 0x00, 0x0c, 0x00, 0x00, 0x00, 0x04, 0x00, 0x00, 0x00,
  0x0c, 0xf4, 0xff, 0xff, 0x01, 0x00, 0x00, 0x00, 0x0d, 0x00, 0x00, 0x00,
  0x02, 0x00, 0x00, 0x00, 0x00, 0x00, 0x00, 0x00, 0x06, 0x00, 0x00, 0x00,
  0x01, 0x00, 0x00, 0x00, 0x1b, 0x00, 0x00, 0x00, 0x01, 0x00, 0x00, 0x00,
  0x00, 0x00, 0x00, 0x00, 0x1c, 0x00, 0x00, 0x00, 0xa0, 0x0b, 0x00, 0x00,
  0x54, 0x0b, 0x00, 0x00, 0x0c, 0x0b, 0x00, 0x00, 0xd8, 0x0a, 0x00, 0x00,
  0x90, 0x0a, 0x00, 0x00, 0x38, 0x0a, 0x00, 0x00, 0xf0, 0x09, 0x00, 0x00,
  0xa0, 0x09, 0x00, 0x00, 0x50, 0x09, 0x00, 0x00, 0x00, 0x09, 0x00, 0x00,
  0xb0, 0x08, 0x00, 0x00, 0x50, 0x08, 0x00, 0x00, 0x00, 0x08, 0x00, 0x00,
  0x90, 0x07, 0x00, 0x00, 0xb0, 0x06, 0x00, 0x00, 0x0c, 0x06, 0x00, 0x00,
  0x9c, 0x05, 0x00, 0x00, 0x2c, 0x05, 0x00, 0x00, 0xc4, 0x04, 0x00, 0x00,
  0x50, 0x04, 0x00, 0x00, 0x80, 0x03, 0x00, 0x00, 0xd4, 0x02, 0x00, 0x00,
  0x70, 0x02, 0x00, 0x00, 0x0c, 0x02, 0x00, 0x00, 0xa8, 0x01, 0x00, 0x00,
  0x34, 0x01, 0x00, 0x00, 0x64, 0x00, 0x00, 0x00, 0x04, 0x00, 0x00, 0x00,
  0xe4, 0xf4, 0xff, 0xff, 0x48, 0x00, 0x00, 0x00, 0x1c, 0x00, 0x00, 0x00,
  0x20, 0x00, 0x00, 0x00, 0x18, 0x00, 0x00, 0x00, 0x04, 0x00, 0x00, 0x00,
  0x03, 0x00, 0x00, 0x00, 0xff, 0xff, 0xff, 0xff, 0x04, 0x00, 0x00, 0x00,
  0x01, 0x00, 0x00, 0x00, 0xd0, 0xf4, 0xff, 0xff, 0x19, 0x00, 0x00, 0x00,
  0x53, 0x74, 0x61, 0x74, 0x65, 0x66, 0x75, 0x6c, 0x50, 0x61, 0x72, 0x74,
  0x69, 0x74, 0x69, 0x6f, 0x6e, 0x65, 0x64, 0x43, 0x61, 0x6c, 0x6c, 0x3a,
  0x30, 0x00, 0x00, 0x00, 0x03, 0x00, 0x00, 0x00, 0x01, 0x00, 0x00, 0x00,
  0x04, 0x00, 0x00, 0x00, 0x01, 0x00, 0x00, 0x00, 0x40, 0xf5, 0xff, 0xff,
  0xb4, 0x00, 0x00, 0x00, 0x1b, 0x00, 0x00, 0x00, 0x24, 0x00, 0x00, 0x00,
  0x1c, 0x00, 0x00, 0x00, 0x04, 0x00, 0x00, 0x00, 0x04, 0x00, 0x00, 0x00,
  0xff, 0xff, 0xff, 0xff, 0x01, 0x00, 0x00, 0x00, 0x04, 0x00, 0x00, 0x00,
  0x01, 0x00, 0x00, 0x00, 0x30, 0xf5, 0xff, 0xff, 0x80, 0x00, 0x00, 0x00,
  0x73, 0x65, 0x71, 0x75, 0x65, 0x6e, 0x74, 0x69, 0x61, 0x6c, 0x2f, 0x63,
  0x6f, 0x6e, 0x76, 0x31, 0x64, 0x5f, 0x32, 0x2f, 0x52, 0x65, 0x6c, 0x75,
  0x3b, 0x73, 0x65, 0x71, 0x75, 0x65, 0x6e, 0x74, 0x69, 0x61, 0x6c, 0x2f,
  0x63, 0x6f, 0x6e, 0x76, 0x31, 0x64, 0x5f, 0x32, 0x2f, 0x42, 0x69, 0x61,
  0x73, 0x41, 0x64, 0x64, 0x3b, 0x73, 0x65, 0x71, 0x75, 0x65, 0x6e, 0x74,
  0x69, 0x61, 0x6c, 0x2f, 0x63, 0x6f, 0x6e, 0x76, 0x31, 0x64, 0x5f, 0x32,
  0x2f, 0x43, 0x6f, 0x6e, 0x76, 0x31, 0x44, 0x2f, 0x53, 0x71, 0x75, 0x65,
  0x65, 0x7a, 0x65, 0x3b, 0x63, 0x6f, 0x6e, 0x76, 0x31, 0x64, 0x5f, 0x32,
  0x2f, 0x62, 0x69, 0x61, 0x73, 0x3b, 0x73, 0x65, 0x71, 0x75, 0x65, 0x6e,
  0x74, 0x69, 0x61, 0x6c, 0x2f, 0x63, 0x6f, 0x6e, 0x76, 0x31, 0x64, 0x5f,
  0x32, 0x2f, 0x43, 0x6f, 0x6e, 0x76, 0x31, 0x44, 0x00, 0x00, 0x00, 0x00,
  0x04, 0x00, 0x00, 0x00, 0x01, 0x00, 0x00, 0x00, 0x01, 0x00, 0x00, 0x00,
  0x04, 0x00, 0x00, 0x00, 0x01, 0x00, 0x00, 0x00, 0x0c, 0xf6, 0xff, 0xff,
  0x58, 0x00, 0x00, 0x00, 0x1a, 0x00, 0x00, 0x00, 0x24, 0x00, 0x00, 0x00,
  0x1c, 0x00, 0x00, 0x00, 0x04, 0x00, 0x00, 0x00, 0x04, 0x00, 0x00, 0x00,
  0xff, 0xff, 0xff, 0xff, 0x01, 0x00, 0x00, 0x00, 0x04, 0x00, 0x00, 0x00,
  0x10, 0x00, 0x00, 0x00, 0xfc, 0xf5, 0xff, 0xff, 0x25, 0x00, 0x00, 0x00,
  0x73, 0x65, 0x71, 0x75, 0x65, 0x6e, 0x74, 0x69, 0x61, 0x6c, 0x2f, 0x63,
  0x6f, 0x6e, 0x76, 0x31, 0x64, 0x5f, 0x32, 0x2f, 0x43, 0x6f, 0x6e, 0x76,
  0x31, 0x44, 0x2f, 0x45, 0x78, 0x70, 0x61, 0x6e, 0x64, 0x44, 0x69, 0x6d,
  0x73, 0x00, 0x00, 0x00, 0x04, 0x00, 0x00, 0x00, 0x01, 0x00, 0x00, 0x00,
  0x01, 0x00, 0x00, 0x00, 0x04, 0x00, 0x00, 0x00, 0x10, 0x00, 0x00, 0x00,
  0x7c, 0xf6, 0xff, 0xff, 0x4c, 0x00, 0x00, 0x00, 0x19, 0x00, 0x00, 0x00,
  0x20, 0x00, 0x00, 0x00, 0x18, 0x00, 0x00, 0x00, 0x04, 0x00, 0x00, 0x00,
  0x03, 0x00, 0x00, 0x00, 0xff, 0xff, 0xff, 0xff, 0x04, 0x00, 0x00, 0x00,
  0x10, 0x00, 0x00, 0x00, 0x68, 0xf6, 0xff, 0xff, 0x1f, 0x00, 0x00, 0x00,
  0x73, 0x65, 0x71, 0x75, 0x65, 0x6e, 0x74, 0x69, 0x61, 0x6c, 0x2f, 0x75,
  0x70, 0x5f, 0x73, 0x61, 0x6d, 0x70, 0x6c, 0x69, 0x6e, 0x67, 0x31, 0x64,
  0x2f, 0x63, 0x6f, 0x6e, 0x63, 0x61, 0x74, 0x00, 0x03, 0x00, 0x00, 0x00,
  0x01, 0x00, 0x00, 0x00, 0x04, 0x00, 0x00, 0x00, 0x10, 0x00, 0x00, 0x00,
  0xdc, 0xf6, 0xff, 0xff, 0x4c, 0x00, 0x00, 0x00, 0x18, 0x00, 0x00, 0x00,
  0x20, 0x00, 0x00, 0x00, 0x18, 0x00, 0x00, 0x00, 0x04, 0x00, 0x00, 0x00,
  0x03, 0x00, 0x00, 0x00, 0xff, 0xff, 0xff, 0xff, 0x01, 0x00, 0x00, 0x00,
  0x10, 0x00, 0x00, 0x00, 0xc8, 0xf6, 0xff, 0xff, 0x1f, 0x00, 0x00, 0x00,
  0x73, 0x65, 0x71, 0x75, 0x65, 0x6e, 0x74, 0x69, 0x61, 0x6c, 0x2f, 0x75,
  0x70, 0x5f, 0x73, 0x61, 0x6d, 0x70, 0x6c, 0x69, 0x6e, 0x67, 0x31, 0x64,
  0x2f, 0x73, 0x70, 0x6c, 0x69, 0x74, 0x31, 0x00, 0x03, 0x00, 0x00, 0x00,
  0x01, 0x00, 0x00, 0x00, 0x01, 0x00, 0x00, 0x00, 0x10, 0x00, 0x00, 0x00,
  0x3c, 0xf7, 0xff, 0xff, 0x4c, 0x00, 0x00, 0x00, 0x17, 0x00, 0x00, 0x00,
  0x20, 0x00, 0x00, 0x00, 0x18, 0x00, 0x00, 0x00, 0x04, 0x00, 0x00, 0x00,
  0x03, 0x00, 0x00, 0x00, 0xff, 0xff, 0xff, 0xff, 0x01, 0x00, 0x00, 0x00,
  0x10, 0x00, 0x00, 0x00, 0x28, 0xf7, 0xff, 0xff, 0x1e, 0x00, 0x00, 0x00,
  0x73, 0x65, 0x71, 0x75, 0x65, 0x6e, 0x74, 0x69, 0x61, 0x6c, 0x2f, 0x75,
  0x70, 0x5f, 0x73, 0x61, 0x6d, 0x70, 0x6c, 0x69, 0x6e, 0x67, 0x31, 0x64,
  0x2f, 0x73, 0x70, 0x6c, 0x69, 0x74, 0x00, 0x00, 0x03, 0x00, 0x00, 0x00,
  0x01, 0x00, 0x00, 0x00, 0x01, 0x00, 0x00, 0x00, 0x10, 0x00, 0x00, 0x00,
  0x9c, 0xf7, 0xff, 0xff, 0x94, 0x00, 0x00, 0x00, 0x16, 0x00, 0x00, 0x00,
  0x20, 0x00, 0x00, 0x00, 0x18, 0x00, 0x00, 0x00, 0x04, 0x00, 0x00, 0x00,
  0x03, 0x00, 0x00, 0x00, 0xff, 0xff, 0xff, 0xff, 0x02, 0x00, 0x00, 0x00,
  0x10, 0x00, 0x00, 0x00, 0x88, 0xf7, 0xff, 0xff, 0x65, 0x00, 0x00, 0x00,
  0x73, 0x65, 0x71, 0x75, 0x65, 0x6e, 0x74, 0x69, 0x61, 0x6c, 0x2f, 0x63,
  0x6f, 0x6e, 0x76, 0x31, 0x64, 0x5f, 0x31, 0x2f, 0x52, 0x65, 0x6c, 0x75,
  0x3b, 0x73, 0x65, 0x71, 0x75, 0x65, 0x6e, 0x74, 0x69, 0x61, 0x6c, 0x2f,
  0x63, 0x6f, 0x6e, 0x76, 0x31, 0x64, 0x5f, 0x31, 0x2f, 0x42, 0x69, 0x61,
  0x73, 0x41, 0x64, 0x64, 0x3b, 0x73, 0x65, 0x71, 0x75, 0x65, 0x6e, 0x74,
  0x69, 0x61, 0x6c, 0x2f, 0x63, 0x6f, 0x6e, 0x76, 0x31, 0x64, 0x5f, 0x31,
  0x2f, 0x43, 0x6f, 0x6e, 0x76, 0x31, 0x44, 0x2f, 0x53, 0x71, 0x75, 0x65,
  0x65, 0x7a, 0x65, 0x3b, 0x63, 0x6f, 0x6e, 0x76, 0x31, 0x64, 0x5f, 0x31,
  0x2f, 0x62, 0x69, 0x61, 0x73, 0x00, 0x00, 0x00, 0x03, 0x00, 0x00, 0x00,
  0x01, 0x00, 0x00, 0x00, 0x02, 0x00, 0x00, 0x00, 0x10, 0x00, 0x00, 0x00,
  0x44, 0xf8, 0xff, 0xff, 0xb4, 0x00, 0x00, 0x00, 0x15, 0x00, 0x00, 0x00,
  0x24, 0x00, 0x00, 0x00, 0x1c, 0x00, 0x00, 0x00, 0x04, 0x00, 0x00, 0x00,
  0x04, 0x00, 0x00, 0x00, 0xff, 0xff, 0xff, 0xff, 0x01, 0x00, 0x00, 0x00,
  0x02, 0x00, 0x00, 0x00, 0x10, 0x00, 0x00, 0x00, 0x34, 0xf8, 0xff, 0xff,
  0x80, 0x00, 0x00, 0x00, 0x73, 0x65, 0x71, 0x75, 0x65, 0x6e, 0x74, 0x69,
  0x61, 0x6c, 0x2f, 0x63, 0x6f, 0x6e, 0x76, 0x31, 0x64, 0x5f, 0x31, 0x2f,
  0x52, 0x65, 0x6c, 0x75, 0x3b, 0x73, 0x65, 0x71, 0x75, 0x65, 0x6e, 0x74,
  0x69, 0x61, 0x6c, 0x2f, 0x63, 0x6f, 0x6e, 0x76, 0x31, 0x64, 0x5f, 0x31,
  0x2f, 0x42, 0x69, 0x61, 0x73, 0x41, 0x64, 0x64, 0x3b, 0x73, 0x65, 0x71,
  0x75, 0x65, 0x6e, 0x74, 0x69, 0x61, 0x6c, 0x2f, 0x63, 0x6f, 0x6e, 0x76,
  0x31, 0x64, 0x5f, 0x31, 0x2f, 0x43, 0x6f, 0x6e, 0x76, 0x31, 0x44, 0x2f,
  0x53, 0x71, 0x75, 0x65, 0x65, 0x7a, 0x65, 0x3b, 0x63, 0x6f, 0x6e, 0x76,
  0x31, 0x64, 0x5f, 0x31, 0x2f, 0x62, 0x69, 0x61, 0x73, 0x3b, 0x73, 0x65,
  0x71, 0x75, 0x65, 0x6e, 0x74, 0x69, 0x61, 0x6c, 0x2f, 0x63, 0x6f, 0x6e,
  0x76, 0x31, 0x64, 0x5f, 0x31, 0x2f, 0x43, 0x6f, 0x6e, 0x76, 0x31, 0x44,
  0x00, 0x00, 0x00, 0x00, 0x04, 0x00, 0x00, 0x00, 0x01, 0x00, 0x00, 0x00,
  0x01, 0x00, 0x00, 0x00, 0x02, 0x00, 0x00, 0x00, 0x10, 0x00, 0x00, 0x00,
  0x10, 0xf9, 0xff, 0xff, 0x58, 0x00, 0x00, 0x00, 0x14, 0x00, 0x00, 0x00,
  0x24, 0x00, 0x00, 0x00, 0x1c, 0x00, 0x00, 0x00, 0x04, 0x00, 0x00, 0x00,
  0x04, 0x00, 0x00, 0x00, 0xff, 0xff, 0xff, 0xff, 0x01, 0x00, 0x00, 0x00,
  0x02, 0x00, 0x00, 0x00, 0x10, 0x00, 0x00, 0x00, 0x00, 0xf9, 0xff, 0xff,
  0x25, 0x00, 0x00, 0x00, 0x73, 0x65, 0x71, 0x75, 0x65, 0x6e, 0x74, 0x69,
  0x61, 0x6c, 0x2f, 0x63, 0x6f, 0x6e, 0x76, 0x31, 0x64, 0x5f, 0x31, 0x2f,
  0x43, 0x6f, 0x6e, 0x76, 0x31, 0x44, 0x2f, 0x45, 0x78, 0x70, 0x61, 0x6e,
  0x64, 0x44, 0x69, 0x6d, 0x73, 0x00, 0x00, 0x00, 0x04, 0x00, 0x00, 0x00,
  0x01, 0x00, 0x00, 0x00, 0x01, 0x00, 0x00, 0x00, 0x02, 0x00, 0x00, 0x00,
  0x10, 0x00, 0x00, 0x00, 0x80, 0xf9, 0xff, 0xff, 0x50, 0x00, 0x00, 0x00,
  0x13, 0x00, 0x00, 0x00, 0x20, 0x00, 0x00, 0x00, 0x18, 0x00, 0x00, 0x00,
  0x04, 0x00, 0x00, 0x00, 0x03, 0x00, 0x00, 0x00, 0xff, 0xff, 0xff, 0xff,
  0x02, 0x00, 0x00, 0x00, 0x10, 0x00, 0x00, 0x00, 0x6c, 0xf9, 0xff, 0xff,
  0x20, 0x00, 0x00, 0x00, 0x73, 0x65, 0x71, 0x75, 0x65, 0x6e, 0x74, 0x69,
  0x61, 0x6c, 0x2f, 0x6d, 0x61, 0x78, 0x5f, 0x70, 0x6f, 0x6f, 0x6c, 0x69,
  0x6e, 0x67, 0x31, 0x64, 0x2f, 0x53, 0x71, 0x75, 0x65, 0x65, 0x7a, 0x65,
  0x00, 0x00, 0x00, 0x00, 0x03, 0x00, 0x00, 0x00, 0x01, 0x00, 0x00, 0x00,
  0x02, 0x00, 0x00, 0x00, 0x10, 0x00, 0x00, 0x00, 0xe4, 0xf9, 0xff, 0xff,
  0x54, 0x00, 0x00, 0x00, 0x12, 0x00, 0x00, 0x00, 0x24, 0x00, 0x00, 0x00,
  0x1c, 0x00, 0x00, 0x00, 0x04, 0x00, 0x00, 0x00, 0x04, 0x00, 0x00, 0x00,
  0xff, 0xff, 0xff, 0xff, 0x02, 0x00, 0x00, 0x00, 0x01, 0x00, 0x00, 0x00,
  0x10, 0x00, 0x00, 0x00, 0xd4, 0xf9, 0xff, 0xff, 0x20, 0x00, 0x00, 0x00,
  0x73, 0x65, 0x71, 0x75, 0x65, 0x6e, 0x74, 0x69, 0x61, 0x6c, 0x2f, 0x6d,
  0x61, 0x78, 0x5f, 0x70, 0x6f, 0x6f, 0x6c, 0x69, 0x6e, 0x67, 0x31, 0x64,
  0x2f, 0x4d, 0x61, 0x78, 0x50, 0x6f, 0x6f, 0x6c, 0x00, 0x00, 0x00, 0x00,
  0x04, 0x00, 0x00, 0x00, 0x01, 0x00, 0x00, 0x00, 0x02, 0x00, 0x00, 0x00,
  0x01, 0x00, 0x00, 0x00, 0x10, 0x00, 0x00, 0x00, 0x50, 0xfa, 0xff, 0xff,
  0x54, 0x00, 0x00, 0x00, 0x11, 0x00, 0x00, 0x00, 0x24, 0x00, 0x00, 0x00,
  0x1c, 0x00, 0x00, 0x00, 0x04, 0x00, 0x00, 0x00, 0x04, 0x00, 0x00, 0x00,
  0xff, 0xff, 0xff, 0xff, 0x04, 0x00, 0x00, 0x00, 0x01, 0x00, 0x00, 0x00,
  0x10, 0x00, 0x00, 0x00, 0x40, 0xfa, 0xff, 0xff, 0x23, 0x00, 0x00, 0x00,
  0x73, 0x65, 0x71, 0x75, 0x65, 0x6e, 0x74, 0x69, 0x61, 0x6c, 0x2f, 0x6d,
  0x61, 0x78, 0x5f, 0x70, 0x6f, 0x6f, 0x6c, 0x69, 0x6e, 0x67, 0x31, 0x64,
  0x2f, 0x45, 0x78, 0x70, 0x61, 0x6e, 0x64, 0x44, 0x69, 0x6d, 0x73, 0x00,
  0x04, 0x00, 0x00, 0x00, 0x01, 0x00, 0x00, 0x00, 0x04, 0x00, 0x00, 0x00,
  0x01, 0x00, 0x00, 0x00, 0x10, 0x00, 0x00, 0x00, 0xbc, 0xfa, 0xff, 0xff,
  0x8c, 0x00, 0x00, 0x00, 0x10, 0x00, 0x00, 0x00, 0x20, 0x00, 0x00, 0x00,
  0x18, 0x00, 0x00, 0x00, 0x04, 0x00, 0x00, 0x00, 0x03, 0x00, 0x00, 0x00,
  0xff, 0xff, 0xff, 0xff, 0x04, 0x00, 0x00, 0x00, 0x10, 0x00, 0x00, 0x00,
  0xa8, 0xfa, 0xff, 0xff, 0x5d, 0x00, 0x00, 0x00, 0x73, 0x65, 0x71, 0x75,
  0x65, 0x6e, 0x74, 0x69, 0x61, 0x6c, 0x2f, 0x63, 0x6f, 0x6e, 0x76, 0x31,
  0x64, 0x2f, 0x52, 0x65, 0x6c, 0x75, 0x3b, 0x73, 0x65, 0x71, 0x75, 0x65,
  0x6e, 0x74, 0x69, 0x61, 0x6c, 0x2f, 0x63, 0x6f, 0x6e, 0x76, 0x31, 0x64,
  0x2f, 0x42, 0x69, 0x61, 0x73, 0x41, 0x64, 0x64, 0x3b, 0x73, 0x65, 0x71,
  0x75, 0x65, 0x6e, 0x74, 0x69, 0x61, 0x6c, 0x2f, 0x63, 0x6f, 0x6e, 0x76,
  0x31, 0x64, 0x2f, 0x43, 0x6f, 0x6e, 0x76, 0x31, 0x44, 0x2f, 0x53, 0x71,
  0x75, 0x65, 0x65, 0x7a, 0x65, 0x3b, 0x63, 0x6f, 0x6e, 0x76, 0x31, 0x64,
  0x2f, 0x62, 0x69, 0x61, 0x73, 0x00, 0x00, 0x00, 0x03, 0x00, 0x00, 0x00,
  0x01, 0x00, 0x00, 0x00, 0x04, 0x00, 0x00, 0x00, 0x10, 0x00, 0x00, 0x00,
  0x5c, 0xfb, 0xff, 0xff, 0xc4, 0x00, 0x00, 0x00, 0x0f, 0x00, 0x00, 0x00,
  0x24, 0x00, 0x00, 0x00, 0x1c, 0x00, 0x00, 0x00, 0x04, 0x00, 0x00, 0x00,
  0x04, 0x00, 0x00, 0x00, 0xff, 0xff, 0xff, 0xff, 0x01, 0x00, 0x00, 0x00,
  0x04, 0x00, 0x00, 0x00, 0x10, 0x00, 0x00, 0x00, 0x4c, 0xfb, 0xff, 0xff,
  0x91, 0x00, 0x00, 0x00, 0x73, 0x65, 0x71, 0x75, 0x65, 0x6e, 0x74, 0x69,
  0x61, 0x6c, 0x2f, 0x63, 0x6f, 0x6e, 0x76, 0x31, 0x64, 0x2f, 0x52, 0x65,
  0x6c, 0x75, 0x3b, 0x73, 0x65, 0x71, 0x75, 0x65, 0x6e, 0x74, 0x69, 0x61,
  0x6c, 0x2f, 0x63, 0x6f, 0x6e, 0x76, 0x31, 0x64, 0x2f, 0x42, 0x69, 0x61,
  0x73, 0x41, 0x64, 0x64, 0x3b, 0x73, 0x65, 0x71, 0x75, 0x65, 0x6e, 0x74,
  0x69, 0x61, 0x6c, 0x2f, 0x63, 0x6f, 0x6e, 0x76, 0x31, 0x64, 0x2f, 0x43,
  0x6f, 0x6e, 0x76, 0x31, 0x44, 0x2f, 0x53, 0x71, 0x75, 0x65, 0x65, 0x7a,
  0x65, 0x3b, 0x63, 0x6f, 0x6e, 0x76, 0x31, 0x64, 0x2f, 0x62, 0x69, 0x61,
  0x73, 0x3b, 0x73, 0x65, 0x71, 0x75, 0x65, 0x6e, 0x74, 0x69, 0x61, 0x6c,
  0x2f, 0x63, 0x6f, 0x6e, 0x76, 0x31, 0x64, 0x5f, 0x31, 0x2f, 0x43, 0x6f,
  0x6e, 0x76, 0x31, 0x44, 0x3b, 0x73, 0x65, 0x71, 0x75, 0x65, 0x6e, 0x74,
  0x69, 0x61, 0x6c, 0x2f, 0x63, 0x6f, 0x6e, 0x76, 0x31, 0x64, 0x2f, 0x43,
  0x6f, 0x6e, 0x76, 0x31, 0x44, 0x00, 0x00, 0x00, 0x04, 0x00, 0x00, 0x00,
  0x01, 0x00, 0x00, 0x00, 0x01, 0x00, 0x00, 0x00, 0x04, 0x00, 0x00, 0x00,
  0x10, 0x00, 0x00, 0x00, 0x38, 0xfc, 0xff, 0xff, 0x54, 0x00, 0x00, 0x00,
  0x0e, 0x00, 0x00, 0x00, 0x24, 0x00, 0x00, 0x00, 0x1c, 0x00, 0x00, 0x00,
  0x04, 0x00, 0x00, 0x00, 0x04, 0x00, 0x00, 0x00, 0xff, 0xff, 0xff, 0xff,
  0x01, 0x00, 0x00, 0x00, 0x04, 0x00, 0x00, 0x00, 0x01, 0x00, 0x00, 0x00,
  0x28, 0xfc, 0xff, 0xff, 0x23, 0x00, 0x00, 0x00, 0x73, 0x65, 0x71, 0x75,
  0x65, 0x6e, 0x74, 0x69, 0x61, 0x6c, 0x2f, 0x63, 0x6f, 0x6e, 0x76, 0x31,
  0x64, 0x2f, 0x43, 0x6f, 0x6e, 0x76, 0x31, 0x44, 0x2f, 0x45, 0x78, 0x70,
  0x61, 0x6e, 0x64, 0x44, 0x69, 0x6d, 0x73, 0x00, 0x04, 0x00, 0x00, 0x00,
  0x01, 0x00, 0x00, 0x00, 0x01, 0x00, 0x00, 0x00, 0x04, 0x00, 0x00, 0x00,
  0x01, 0x00, 0x00, 0x00, 0x66, 0xff, 0xff, 0xff, 0x00, 0x00, 0x00, 0x02,
  0x3c, 0x00, 0x00, 0x00, 0x0d, 0x00, 0x00, 0x00, 0x0c, 0x00, 0x00, 0x00,
  0x04, 0x00, 0x00, 0x00, 0x80, 0xfc, 0xff, 0xff, 0x22, 0x00, 0x00, 0x00,
  0x73, 0x65, 0x71, 0x75, 0x65, 0x6e, 0x74, 0x69, 0x61, 0x6c, 0x2f, 0x63,
  0x6f, 0x6e, 0x76, 0x31, 0x64, 0x5f, 0x32, 0x2f, 0x43, 0x6f, 0x6e, 0x76,
  0x31, 0x44, 0x2f, 0x53, 0x71, 0x75, 0x65, 0x65, 0x7a, 0x65, 0x00, 0x00,
  0x01, 0x00, 0x00, 0x00, 0x03, 0x00, 0x00, 0x00, 0xb2, 0xff, 0xff, 0xff,
  0x00, 0x00, 0x00, 0x02, 0x3c, 0x00, 0x00, 0x00, 0x0c, 0x00, 0x00, 0x00,
  0x0c, 0x00, 0x00, 0x00, 0x04, 0x00, 0x00, 0x00, 0xcc, 0xfc, 0xff, 0xff,
  0x22, 0x00, 0x00, 0x00, 0x73, 0x65, 0x71, 0x75, 0x65, 0x6e, 0x74, 0x69,
  0x61, 0x6c, 0x2f, 0x63, 0x6f, 0x6e, 0x76, 0x31, 0x64, 0x5f, 0x31, 0x2f,
  0x43, 0x6f, 0x6e, 0x76, 0x31, 0x44, 0x2f, 0x53, 0x71, 0x75, 0x65, 0x65,
  0x7a, 0x65, 0x00, 0x00, 0x01, 0x00, 0x00, 0x00, 0x03, 0x00, 0x00, 0x00,
  0x00, 0x00, 0x0e, 0x00, 0x18, 0x00, 0x08, 0x00, 0x07, 0x00, 0x0c, 0x00,
  0x10, 0x00, 0x14, 0x00, 0x0e, 0x00, 0x00, 0x00, 0x00, 0x00, 0x00, 0x02,
  0x3c, 0x00, 0x00, 0x00, 0x0b, 0x00, 0x00, 0x00, 0x0c, 0x00, 0x00, 0x00,
  0x04, 0x00, 0x00, 0x00, 0x28, 0xfd, 0xff, 0xff, 0x20, 0x00, 0x00, 0x00,
  0x73, 0x65, 0x71, 0x75, 0x65, 0x6e, 0x74, 0x69, 0x61, 0x6c, 0x2f, 0x63,
  0x6f, 0x6e, 0x76, 0x31, 0x64, 0x2f, 0x43, 0x6f, 0x6e, 0x76, 0x31, 0x44,
  0x2f, 0x53, 0x71, 0x75, 0x65, 0x65, 0x7a, 0x65, 0x00, 0x00, 0x00, 0x00,
  0x01, 0x00, 0x00, 0x00, 0x03, 0x00, 0x00, 0x00, 0xda, 0xfd, 0xff, 0xff,
  0x34, 0x00, 0x00, 0x00, 0x0a, 0x00, 0x00, 0x00, 0x0c, 0x00, 0x00, 0x00,
  0x04, 0x00, 0x00, 0x00, 0x70, 0xfd, 0xff, 0xff, 0x1a, 0x00, 0x00, 0x00,
  0x73, 0x65, 0x71, 0x75, 0x65, 0x6e, 0x74, 0x69, 0x61, 0x6c, 0x2f, 0x63,
  0x6f, 0x6e, 0x76, 0x31, 0x64, 0x5f, 0x32, 0x2f, 0x43, 0x6f, 0x6e, 0x76,
  0x31, 0x44, 0x00, 0x00, 0x04, 0x00, 0x00, 0x00, 0x01, 0x00, 0x00, 0x00,
  0x01, 0x00, 0x00, 0x00, 0x01, 0x00, 0x00, 0x00, 0x10, 0x00, 0x00, 0x00,
  0x26, 0xfe, 0xff, 0xff, 0x34, 0x00, 0x00, 0x00, 0x09, 0x00, 0x00, 0x00,
  0x0c, 0x00, 0x00, 0x00, 0x04, 0x00, 0x00, 0x00, 0xbc, 0xfd, 0xff, 0xff,
  0x1a, 0x00, 0x00, 0x00, 0x73, 0x65, 0x71, 0x75, 0x65, 0x6e, 0x74, 0x69,
  0x61, 0x6c, 0x2f, 0x63, 0x6f, 0x6e, 0x76, 0x31, 0x64, 0x5f, 0x31, 0x2f,
  0x43, 0x6f, 0x6e, 0x76, 0x31, 0x44, 0x00, 0x00, 0x04, 0x00, 0x00, 0x00,
  0x10, 0x00, 0x00, 0x00, 0x01, 0x00, 0x00, 0x00, 0x02, 0x00, 0x00, 0x00,
  0x10, 0x00, 0x00, 0x00, 0x72, 0xfe, 0xff, 0xff, 0x34, 0x00, 0x00, 0x00,
  0x08, 0x00, 0x00, 0x00, 0x0c, 0x00, 0x00, 0x00, 0x04, 0x00, 0x00, 0x00,
  0x08, 0xfe, 0xff, 0xff, 0x18, 0x00, 0x00, 0x00, 0x73, 0x65, 0x71, 0x75,
  0x65, 0x6e, 0x74, 0x69, 0x61, 0x6c, 0x2f, 0x63, 0x6f, 0x6e, 0x76, 0x31,
  0x64, 0x2f, 0x43, 0x6f, 0x6e, 0x76, 0x31, 0x44, 0x00, 0x00, 0x00, 0x00,
  0x04, 0x00, 0x00, 0x00, 0x10, 0x00, 0x00, 0x00, 0x01, 0x00, 0x00, 0x00,
  0x02, 0x00, 0x00, 0x00, 0x01, 0x00, 0x00, 0x00, 0x76, 0xff, 0xff, 0xff,
  0x00, 0x00, 0x00, 0x02, 0x07, 0x00, 0x00, 0x00, 0x0c, 0x00, 0x00, 0x00,
  0x04, 0x00, 0x00, 0x00, 0x54, 0xfe, 0xff, 0xff, 0x27, 0x00, 0x00, 0x00,
  0x73, 0x65, 0x71, 0x75, 0x65, 0x6e, 0x74, 0x69, 0x61, 0x6c, 0x2f, 0x63,
  0x6f, 0x6e, 0x76, 0x31, 0x64, 0x2f, 0x43, 0x6f, 0x6e, 0x76, 0x31, 0x44,
  0x2f, 0x45, 0x78, 0x70, 0x61, 0x6e, 0x64, 0x44, 0x69, 0x6d, 0x73, 0x2f,
  0x64, 0x69, 0x6d, 0x00, 0xba, 0xff, 0xff, 0xff, 0x00, 0x00, 0x00, 0x02,
  0x06, 0x00, 0x00, 0x00, 0x0c, 0x00, 0x00, 0x00, 0x04, 0x00, 0x00, 0x00,
  0x98, 0xfe, 0xff, 0xff, 0x27, 0x00, 0x00, 0x00, 0x73, 0x65, 0x71, 0x75,
  0x65, 0x6e, 0x74, 0x69, 0x61, 0x6c, 0x2f, 0x6d, 0x61, 0x78, 0x5f, 0x70,
  0x6f, 0x6f, 0x6c, 0x69, 0x6e, 0x67, 0x31, 0x64, 0x2f, 0x45, 0x78, 0x70,
  0x61, 0x6e, 0x64, 0x44, 0x69, 0x6d, 0x73, 0x2f, 0x64, 0x69, 0x6d, 0x00,
  0x00, 0x00, 0x0e, 0x00, 0x14, 0x00, 0x00, 0x00, 0x07, 0x00, 0x08, 0x00,
  0x0c, 0x00, 0x10, 0x00, 0x0e, 0x00, 0x00, 0x00, 0x00, 0x00, 0x00, 0x02,
  0x05, 0x00, 0x00, 0x00, 0x0c, 0x00, 0x00, 0x00, 0x04, 0x00, 0x00, 0x00,
  0xec, 0xfe, 0xff, 0xff, 0x24, 0x00, 0x00, 0x00, 0x73, 0x65, 0x71, 0x75,
  0x65, 0x6e, 0x74, 0x69, 0x61, 0x6c, 0x2f, 0x75, 0x70, 0x5f, 0x73, 0x61,
  0x6d, 0x70, 0x6c, 0x69, 0x6e, 0x67, 0x31, 0x64, 0x2f, 0x63, 0x6f, 0x6e,
  0x63, 0x61, 0x74, 0x2f, 0x61, 0x78, 0x69, 0x73, 0x00, 0x00, 0x00, 0x00,
  0x9a, 0xff, 0xff, 0xff, 0x24, 0x00, 0x00, 0x00, 0x04, 0x00, 0x00, 0x00,
  0x0c, 0x00, 0x00, 0x00, 0x04, 0x00, 0x00, 0x00, 0x30, 0xff, 0xff, 0xff,
  0x0b, 0x00, 0x00, 0x00, 0x63, 0x6f, 0x6e, 0x76, 0x31, 0x64, 0x2f, 0x62,
  0x69, 0x61, 0x73, 0x00, 0x01, 0x00, 0x00, 0x00, 0x10, 0x00, 0x00, 0x00,
  0xca, 0xff, 0xff, 0xff, 0x28, 0x00, 0x00, 0x00, 0x03, 0x00, 0x00, 0x00,
  0x0c, 0x00, 0x00, 0x00, 0x04, 0x00, 0x00, 0x00, 0x60, 0xff, 0xff, 0xff,
  0x0d, 0x00, 0x00, 0x00, 0x63, 0x6f, 0x6e, 0x76, 0x31, 0x64, 0x5f, 0x31,
  0x2f, 0x62, 0x69, 0x61, 0x73, 0x00, 0x00, 0x00, 0x01, 0x00, 0x00, 0x00,
  0x10, 0x00, 0x00, 0x00, 0x00, 0x00, 0x0e, 0x00, 0x14, 0x00, 0x04, 0x00,
  0x00, 0x00, 0x08, 0x00, 0x0c, 0x00, 0x10, 0x00, 0x0e, 0x00, 0x00, 0x00,
  0x28, 0x00, 0x00, 0x00, 0x02, 0x00, 0x00, 0x00, 0x0c, 0x00, 0x00, 0x00,
  0x04, 0x00, 0x00, 0x00, 0xa4, 0xff, 0xff, 0xff, 0x0d, 0x00, 0x00, 0x00,
  0x63, 0x6f, 0x6e, 0x76, 0x31, 0x64, 0x5f, 0x32, 0x2f, 0x62, 0x69, 0x61,
  0x73, 0x00, 0x00, 0x00, 0x01, 0x00, 0x00, 0x00, 0x01, 0x00, 0x00, 0x00,
  0x14, 0x00, 0x18, 0x00, 0x04, 0x00, 0x00, 0x00, 0x08, 0x00, 0x0c, 0x00,
  0x10, 0x00, 0x00, 0x00, 0x00, 0x00, 0x14, 0x00, 0x14, 0x00, 0x00, 0x00,
  0x4c, 0x00, 0x00, 0x00, 0x01, 0x00, 0x00, 0x00, 0x24, 0x00, 0x00, 0x00,
  0x1c, 0x00, 0x00, 0x00, 0x04, 0x00, 0x00, 0x00, 0x03, 0x00, 0x00, 0x00,
  0xff, 0xff, 0xff, 0xff, 0x04, 0x00, 0x00, 0x00, 0x01, 0x00, 0x00, 0x00,
  0x04, 0x00, 0x04, 0x00, 0x04, 0x00, 0x00, 0x00, 0x19, 0x00, 0x00, 0x00,
  0x73, 0x65, 0x72, 0x76, 0x69, 0x6e, 0x67, 0x5f, 0x64, 0x65, 0x66, 0x61,
  0x75, 0x6c, 0x74, 0x5f, 0x69, 0x6e, 0x70, 0x75, 0x74, 0x5f, 0x31, 0x3a,
  0x30, 0x00, 0x00, 0x00, 0x03, 0x00, 0x00, 0x00, 0x01, 0x00, 0x00, 0x00,
  0x04, 0x00, 0x00, 0x00, 0x01, 0x00, 0x00, 0x00, 0x06, 0x00, 0x00, 0x00,
  0x70, 0x00, 0x00, 0x00, 0x50, 0x00, 0x00, 0x00, 0x34, 0x00, 0x00, 0x00,
  0x24, 0x00, 0x00, 0x00, 0x14, 0x00, 0x00, 0x00, 0x04, 0x00, 0x00, 0x00,
  0xb4, 0xff, 0xff, 0xff, 0x00, 0x00, 0x00, 0x02, 0x02, 0x00, 0x00, 0x00,
  0xc0, 0xff, 0xff, 0xff, 0x00, 0x00, 0x00, 0x31, 0x31, 0x00, 0x00, 0x00,
  0xcc, 0xff, 0xff, 0xff, 0x00, 0x00, 0x00, 0x11, 0x11, 0x00, 0x00, 0x00,
  0xd8, 0xff, 0xff, 0xff, 0x00, 0x00, 0x00, 0x16, 0x16, 0x00, 0x00, 0x00,
  0x0c, 0x00, 0x10, 0x00, 0x07, 0x00, 0x00, 0x00, 0x08, 0x00, 0x0c, 0x00,
  0x0c, 0x00, 0x00, 0x00, 0x00, 0x00, 0x00, 0x03, 0x05, 0x00, 0x00, 0x00,
  0x03, 0x00, 0x00, 0x00, 0x0c, 0x00, 0x0c, 0x00, 0x07, 0x00, 0x00, 0x00,
  0x00, 0x00, 0x08, 0x00, 0x0c, 0x00, 0x00, 0x00, 0x00, 0x00, 0x00, 0x46,
  0x46, 0x00, 0x00, 0x00
};
unsigned int model_tflite_len = 7408;
